#ifndef MODEL_H
#define MODEL_H

unsigned char gesture_model_quantized_tflite[] = {
0x1c, 0x00, 0x00, 0x00, 0x54, 0x46, 0x4c, 0x33, 0x14, 0x00, 0x20, 0x00, 0x1c, 0x00, 0x18, 0x00, 0x14, 0x00, 0x10, 0x00, 0x0c, 0x00, 0x00, 0x00, 0x08, 0x00, 0x04, 0x00, 0x14, 0x00, 0x00, 0x00, 0x1c, 0x00, 0x00, 0x00, 0x8c, 0x00, 0x00, 0x00, 0xe4, 0x00, 0x00, 0x00, 0x7c, 0x08, 0x00, 0x00, 0x8c, 0x08, 0x00, 0x00, 0xf4, 0x0d, 0x00, 0x00, 0x03, 0x00, 0x00, 0x00, 0x01, 0x00, 0x00, 0x00, 0x10, 0x00, 0x00, 0x00, 0x00, 0x00, 0x0a, 0x00, 0x10, 0x00, 0x0c, 0x00, 0x08, 0x00, 0x04, 0x00, 0x0a, 0x00, 0x00, 0x00, 0x0c, 0x00, 0x00, 0x00, 0x1c, 0x00, 0x00, 0x00, 0x38, 0x00, 0x00, 0x00, 0x0f, 0x00, 0x00, 0x00, 0x73, 0x65, 0x72, 0x76, 0x69, 0x6e, 0x67, 0x5f, 0x64, 0x65, 0x66, 0x61, 0x75, 0x6c, 0x74, 0x00, 0x01, 0x00, 0x00, 0x00, 0x04, 0x00, 0x00, 0x00, 0x9c, 0xff, 0xff, 0xff, 0x09, 0x00, 0x00, 0x00, 0x04, 0x00, 0x00, 0x00, 0x07, 0x00, 0x00, 0x00, 0x64, 0x65, 0x6e, 0x73, 0x65, 0x5f, 0x31, 0x00, 0x01, 0x00, 0x00, 0x00, 0x04, 0x00, 0x00, 0x00, 0x76, 0xf7, 0xff, 0xff, 0x04, 0x00, 0x00, 0x00, 0x05, 0x00, 0x00, 0x00, 0x69, 0x6e, 0x70, 0x75, 0x74, 0x00, 0x00, 0x00, 0x02, 0x00, 0x00, 0x00, 0x34, 0x00, 0x00, 0x00, 0x04, 0x00, 0x00, 0x00, 0xdc, 0xff, 0xff, 0xff, 0x0c, 0x00, 0x00, 0x00, 0x04, 0x00, 0x00, 0x00, 0x13, 0x00, 0x00, 0x00, 0x43, 0x4f, 0x4e, 0x56, 0x45, 0x52, 0x53, 0x49, 0x4f, 0x4e, 0x5f, 0x4d, 0x45, 0x54, 0x41, 0x44, 0x41, 0x54, 0x41, 0x00, 0x08, 0x00, 0x0c, 0x00, 0x08, 0x00, 0x04, 0x00, 0x08, 0x00, 0x00, 0x00, 0x0b, 0x00, 0x00, 0x00, 0x04, 0x00, 0x00, 0x00, 0x13, 0x00, 0x00, 0x00, 0x6d, 0x69, 0x6e, 0x5f, 0x72, 0x75, 0x6e, 0x74, 0x69, 0x6d, 0x65, 0x5f, 0x76, 0x65, 0x72, 0x73, 0x69, 0x6f, 0x6e, 0x00, 0x0d, 0x00, 0x00, 0x00, 0x94, 0x07, 0x00, 0x00, 0x8c, 0x07, 0x00, 0x00, 0xfc, 0x06, 0x00, 0x00, 0xe0, 0x06, 0x00, 0x00, 0xcc, 0x06, 0x00, 0x00, 0x3c, 0x02, 0x00, 0x00, 0xac, 0x00, 0x00, 0x00, 0xa4, 0x00, 0x00, 0x00, 0x9c, 0x00, 0x00, 0x00, 0x94, 0x00, 0x00, 0x00, 0x8c, 0x00, 0x00, 0x00, 0x6c, 0x00, 0x00, 0x00, 0x04, 0x00, 0x00, 0x00, 0x1e, 0xf8, 0xff, 0xff, 0x04, 0x00, 0x00, 0x00, 0x58, 0x00, 0x00, 0x00, 0x0c, 0x00, 0x00, 0x00, 0x08, 0x00, 0x0e, 0x00, 0x08, 0x00, 0x04, 0x00, 0x08, 0x00, 0x00, 0x00, 0x10, 0x00, 0x00, 0x00, 0x28, 0x00, 0x00, 0x00, 0x00, 0x00, 0x06, 0x00, 0x08, 0x00, 0x04, 0x00, 0x06, 0x00, 0x00, 0x00, 0x04, 0x00, 0x00, 0x00, 0x01, 0x00, 0x00, 0x00, 0xea, 0x03, 0x00, 0x00, 0x00, 0x00, 0x0a, 0x00, 0x10, 0x00, 0x0c, 0x00, 0x08, 0x00, 0x04, 0x00, 0x0a, 0x00, 0x00, 0x00, 0x02, 0x00, 0x00, 0x00, 0x02, 0x00, 0x00, 0x00, 0x04, 0x00, 0x00, 0x00, 0x06, 0x00, 0x00, 0x00, 0x32, 0x2e, 0x31, 0x33, 0x2e, 0x31, 0x00, 0x00, 0x82, 0xf8, 0xff, 0xff, 0x04, 0x00, 0x00, 0x00, 0x10, 0x00, 0x00, 0x00, 0x31, 0x2e, 0x31, 0x31, 0x2e, 0x30, 0x00, 0x00, 0x00, 0x00, 0x00, 0x00, 0x00, 0x00, 0x00, 0x00, 0xd0, 0xf3, 0xff, 0xff, 0xd4, 0xf3, 0xff, 0xff, 0xd8, 0xf3, 0xff, 0xff, 0xdc, 0xf3, 0xff, 0xff, 0xae, 0xf8, 0xff, 0xff, 0x04, 0x00, 0x00, 0x00, 0x80, 0x01, 0x00, 0x00, 0x70, 0x5f, 0x52, 0x3e, 0x03, 0xd2, 0x3f, 0x3d, 0xd7, 0x11, 0xf2, 0x3d, 0x98, 0x20, 0x2b, 0xbe, 0x17, 0x38, 0x6e, 0x3e, 0x9e, 0xd7, 0xb4, 0xbe, 0x49, 0x7f, 0xdd, 0x3d, 0xd3, 0xc0, 0xd0, 0xbd, 0x38, 0x31, 0x6e, 0x3e, 0x6d, 0x7b, 0xee, 0xbd, 0x0d, 0x0e, 0x19, 0x3e, 0x57, 0xeb, 0xcb, 0xbe, 0xe4, 0xd0, 0xd2, 0xbd, 0x54, 0xf8, 0x5b, 0xbe, 0xbb, 0x1d, 0x4c, 0xbd, 0x3f, 0xae, 0x5f, 0x3e, 0xc6, 0x0f, 0xe7, 0x3d, 0xcc, 0xa7, 0x59, 0xbe, 0x71, 0xf4, 0xe4, 0xbe, 0x7b, 0x60, 0x95, 0x3e, 0xeb, 0x11, 0x5a, 0x3c, 0x2f, 0x48, 0x8e, 0x3e, 0x84, 0x57, 0xa4, 0xbe, 0x95, 0xe5, 0xbc, 0xbc, 0xca, 0x5b, 0x77, 0x3e, 0x71, 0x61, 0x77, 0xbd, 0x73, 0xd0, 0x86, 0xbe, 0x66, 0xe0, 0x17, 0xbd, 0x33, 0xe6, 0x12, 0x3e, 0xfa, 0xcf, 0xf7, 0xbe, 0xb9, 0xc8, 0xba, 0x3e, 0x90, 0x2d, 0xcc, 0x3d, 0xdc, 0x5f, 0x77, 0xbe, 0x07, 0x6f, 0x7a, 0x3e, 0x1f, 0xde, 0x85, 0xbe, 0x50, 0x73, 0x99, 0x3e, 0x4c, 0x37, 0xdf, 0x3d, 0xd5, 0xf5, 0xd1, 0xbe, 0x5e, 0x1e, 0x64, 0x3e, 0x5a, 0x81, 0x38, 0xbd, 0xd9, 0x57, 0x94, 0x3d, 0x5a, 0x2f, 0xbc, 0xbd, 0xda, 0x1e, 0x6b, 0xbe, 0xec, 0x9f, 0xbd, 0xbe, 0x6f, 0x2b, 0x54, 0x3d, 0x69, 0x08, 0x33, 0x3e, 0x2c, 0x27, 0x68, 0xbe, 0x21, 0x87, 0x94, 0x3e, 0x61, 0x63, 0x5e, 0x3e, 0x67, 0x28, 0x81, 0x3e, 0x1d, 0xa2, 0x65, 0x3e, 0x39, 0xd7, 0x63, 0xbe, 0xd0, 0xc1, 0x0c, 0x3e, 0x42, 0x71, 0x81, 0x3e, 0xdc, 0xf1, 0x1b, 0xbe, 0x40, 0x4a, 0x89, 0x3e, 0x3e, 0x28, 0x9e, 0x3e, 0xfd, 0x1f, 0xf4, 0xbe, 0xaf, 0x4d, 0xfb, 0xbe, 0x22, 0xf1, 0x37, 0xbe, 0x80, 0xea, 0x8b, 0xbe, 0xa0, 0x14, 0xe0, 0xbc, 0xe9, 0x31, 0x76, 0xbe, 0x8f, 0x47, 0x3a, 0xbe, 0x9e, 0xc3, 0x24, 0xbd, 0xdc, 0x12, 0xa9, 0x3e, 0x39, 0xa8, 0x12, 0x3e, 0x60, 0x11, 0xea, 0x3d, 0x21, 0x51, 0x96, 0x3e, 0x7c, 0xd2, 0x85, 0x3e, 0x0a, 0x15, 0x45, 0xbe, 0xdc, 0xda, 0xa2, 0xbe, 0x4f, 0x63, 0x54, 0xbe, 0xd1, 0x26, 0xa9, 0x3e, 0x6c, 0x6d, 0x82, 0xbc, 0x75, 0xd3, 0xf0, 0xbd, 0x73, 0x35, 0x28, 0xbe, 0x52, 0x03, 0x74, 0x3e, 0x8e, 0x83, 0xa9, 0x3d, 0xcc, 0x2e, 0x26, 0xbe, 0xcc, 0xc0, 0x93, 0x3d, 0x4a, 0xbe, 0xb3, 0x3e, 0x65, 0xc5, 0xba, 0x3e, 0x31, 0x51, 0x52, 0xbe, 0x8f, 0xef, 0xab, 0x3e, 0x27, 0xbf, 0xab, 0xbe, 0x39, 0xb3, 0xb4, 0x3e, 0xab, 0x04, 0x4c, 0xbe, 0x9a, 0x29, 0x18, 0x3e, 0x68, 0x75, 0x31, 0xbc, 0x8d, 0x0b, 0x92, 0xbe, 0x99, 0xa9, 0xc8, 0x3c, 0x08, 0x53, 0x8f, 0xbe, 0x4d, 0x17, 0xa1, 0x3d, 0xab, 0x33, 0x19, 0x3e, 0x03, 0x04, 0xc6, 0x3b, 0x3a, 0xfa, 0xff, 0xff, 0x04, 0x00, 0x00, 0x00, 0x80, 0x04, 0x00, 0x00, 0x50, 0xba, 0x64, 0xbd, 0xf2, 0x8d, 0x9b, 0x3d, 0x51, 0x58, 0xdb, 0x3d, 0xe4, 0xc9, 0x47, 0xbe, 0x26, 0xfc, 0xb5, 0x3d, 0x9b, 0x9a, 0x91, 0xbe, 0xbd, 0x8f, 0xaa, 0xbe, 0x2c, 0x89, 0xdb, 0xbc, 0x5f, 0x27, 0x0f, 0xbe, 0xb4, 0x80, 0x1b, 0x3e, 0xfc, 0x6a, 0xa2, 0xbe, 0x1a, 0x32, 0x89, 0x3e, 0xc8, 0x73, 0x0c, 0xbc, 0x46, 0x2a, 0x8d, 0x3e, 0x08, 0x37, 0xaa, 0x3e, 0xe4, 0xf5, 0x06, 0xbc, 0xc0, 0x74, 0x85, 0x3e, 0x24, 0x93, 0xd5, 0x3d, 0xc7, 0x65, 0x3a, 0x3e, 0x61, 0x1a, 0xc0, 0x3d, 0x8a, 0x30, 0xcf, 0xbe, 0x3c, 0x22, 0x4c, 0x3e, 0x9e, 0xe4, 0x81, 0xbe, 0xd2, 0xd7, 0xa6, 0x3c, 0x4f, 0x74, 0x17, 0xbe, 0x14, 0x14, 0xac, 0xbd, 0x2f, 0x68, 0x11, 0xbe, 0x70, 0x75, 0x39, 0x3e, 0x10, 0x5b, 0xad, 0x3d, 0xcd, 0x93, 0x11, 0x3e, 0xf4, 0x06, 0x2c, 0xbe, 0xa5, 0x08, 0xda, 0x3d, 0x01, 0x0c, 0x63, 0xbc, 0xe0, 0x5d, 0x17, 0xbe, 0x9c, 0x15, 0x2f, 0x3d, 0xe6, 0xb2, 0xd5, 0xbe, 0xfb, 0xc2, 0x4c, 0xbe, 0xb6, 0xca, 0x64, 0xbb, 0x01, 0x35, 0xd1, 0x3c, 0xc1, 0x97, 0x9a, 0xbe, 0xc4, 0xa4, 0xac, 0x3e, 0x0d, 0x00, 0x89, 0x3e, 0x6c, 0x42, 0xed, 0xbd, 0x31, 0xc0, 0x9c, 0xbc, 0x3b, 0x35, 0x2f, 0xbe, 0xdd, 0xce, 0xfe, 0x3e, 0x65, 0x8a, 0x66, 0x3e, 0x72, 0x86, 0xa9, 0xbd, 0x6f, 0x6f, 0xbf, 0x3e, 0x6d, 0x11, 0x8d, 0xbe, 0xa1, 0x20, 0x79, 0xbd, 0xb3, 0xc3, 0xf2, 0x3e, 0x3e, 0x1d, 0xda, 0xbd, 0x49, 0x38, 0xe6, 0xbd, 0xb1, 0x43, 0x28, 0x3d, 0x3e, 0x24, 0xee, 0xbd, 0xe6, 0xa2, 0xc6, 0x3e, 0xd8, 0x05, 0xaa, 0xbe, 0xef, 0x76, 0xda, 0xbe, 0x34, 0x98, 0x5b, 0xbe, 0xb9, 0xae, 0x85, 0x3e, 0xf4, 0xf1, 0xab, 0x3d, 0xca, 0xaf, 0x84, 0x3e, 0x0d, 0x1d, 0xad, 0xbe, 0xae, 0x6a, 0x99, 0xbd, 0x0f, 0x13, 0x9c, 0x3e, 0x5e, 0xe1, 0x16, 0x3c, 0x40, 0xef, 0x88, 0x3e, 0x8d, 0x0f, 0x56, 0x3d, 0x83, 0x28, 0x39, 0x3e, 0xa8, 0xa2, 0x84, 0x3e, 0x3d, 0x58, 0x56, 0x3e, 0x5b, 0x7a, 0xa8, 0xbd, 0xce, 0xed, 0xb5, 0xbb, 0xa9, 0x87, 0xaa, 0xbe, 0xf3, 0xcd, 0xf9, 0xbc, 0xde, 0x28, 0x97, 0x3e, 0x5f, 0x6a, 0x9f, 0x3d, 0xf4, 0xce, 0xa5, 0xbe, 0xbe, 0x47, 0x89, 0x3d, 0xd6, 0xc0, 0x28, 0xbe, 0x8c, 0xd2, 0xad, 0x3e, 0x4e, 0xaf, 0x6c, 0x3e, 0xf1, 0x38, 0x56, 0x3d, 0x6c, 0x97, 0xa8, 0xbe, 0x15, 0x82, 0x82, 0x3e, 0x5c, 0x17, 0x21, 0xbe, 0x21, 0xd3, 0x0c, 0xbd, 0x9e, 0x75, 0x7c, 0x3e, 0x78, 0xbc, 0x36, 0xbc, 0x9d, 0x5c, 0x93, 0xbe, 0x87, 0xde, 0x07, 0xbd, 0xde, 0xfc, 0x83, 0xbe, 0xf9, 0xea, 0xb6, 0xbe, 0x9f, 0x03, 0xb8, 0xbd, 0x6b, 0x0a, 0x76, 0xbe, 0xff, 0x02, 0x5d, 0xbe, 0x48, 0x70, 0xa3, 0x3d, 0x6e, 0xa5, 0x8c, 0xbd, 0xa2, 0x6a, 0x8e, 0x3e, 0x2b, 0x53, 0xb2, 0x3e, 0xbc, 0x7e, 0x46, 0xbd, 0x5d, 0x5a, 0xe4, 0xbd, 0xfd, 0x02, 0x98, 0x3e, 0x64, 0x71, 0x9b, 0x3e, 0x2a, 0xeb, 0xa8, 0xbe, 0x46, 0x38, 0xb9, 0xbe, 0x18, 0x42, 0xb4, 0xbe, 0x57, 0x3b, 0xc0, 0xbe, 0x93, 0x20, 0xb8, 0xbe, 0x4c, 0x95, 0x31, 0x3d, 0xb2, 0x7d, 0x69, 0x3d, 0x3b, 0x28, 0xa5, 0xbe, 0xd8, 0xee, 0x83, 0xbe, 0x41, 0x1c, 0x5b, 0x3e, 0xec, 0xfa, 0x1b, 0xbd, 0x00, 0xe4, 0x8a, 0x3d, 0x83, 0x20, 0x82, 0xbe, 0x2b, 0x56, 0x93, 0x3e, 0x28, 0x18, 0x9f, 0xbe, 0x65, 0x97, 0xb7, 0x3c, 0x19, 0xaa, 0xbd, 0x3e, 0xfd, 0x94, 0x83, 0x3d, 0x25, 0xbb, 0x66, 0xbe, 0xdb, 0x3a, 0x77, 0x3e, 0x46, 0x3e, 0x90, 0x3e, 0xa4, 0xfb, 0x0c, 0xbe, 0x26, 0x74, 0x87, 0xbe, 0x65, 0xd9, 0x36, 0x3d, 0xd9, 0x29, 0xe2, 0xbd, 0xbf, 0xcc, 0x56, 0xbe, 0xbd, 0xb6, 0x86, 0xbe, 0x33, 0x60, 0xcf, 0xbb, 0xc9, 0x80, 0x83, 0xbe, 0xd9, 0x26, 0xb8, 0xbe, 0x17, 0xdc, 0x97, 0xbe, 0x12, 0xb7, 0xd1, 0x3d, 0xb6, 0xce, 0x87, 0x3e, 0x3c, 0x03, 0x59, 0x3d, 0x9b, 0x49, 0x0a, 0x3e, 0xd7, 0xae, 0xb9, 0x3e, 0x05, 0x5b, 0x50, 0x3d, 0x9c, 0x2d, 0x92, 0xbe, 0x56, 0x83, 0xe0, 0xbc, 0x04, 0x46, 0x2c, 0xbe, 0x8e, 0x04, 0x1e, 0xbd, 0xe5, 0x59, 0x22, 0xbd, 0xbd, 0xe2, 0x8f, 0xbe, 0xa4, 0xc4, 0xad, 0x3e, 0x7d, 0xea, 0x29, 0xbe, 0x31, 0x4b, 0x62, 0x3e, 0x2f, 0x37, 0xce, 0x3d, 0x96, 0xeb, 0x90, 0xbe, 0x2e, 0x16, 0x40, 0xbe, 0x33, 0xa3, 0xd2, 0x3e, 0xc9, 0xcd, 0x64, 0xbd, 0x70, 0xd5, 0x76, 0xbe, 0xd1, 0xc2, 0x5c, 0x3e, 0x9b, 0xc4, 0x75, 0xbe, 0x66, 0x1f, 0xa3, 0xbe, 0xf9, 0xcc, 0xe5, 0x3d, 0xc0, 0x51, 0xcf, 0x3e, 0x0b, 0x28, 0xec, 0x3d, 0xc3, 0x30, 0x09, 0x3e, 0xb1, 0xd1, 0x11, 0xbe, 0x0c, 0xdd, 0x4d, 0xbe, 0xb3, 0x73, 0xa1, 0xbe, 0x5d, 0xa6, 0x43, 0xbe, 0x2e, 0x37, 0x7f, 0x3e, 0xdd, 0x77, 0x5b, 0xbe, 0xe1, 0xbe, 0xc9, 0x3e, 0xd4, 0x56, 0x94, 0xbe, 0x8e, 0x2e, 0xbf, 0x3e, 0x06, 0x05, 0xf4, 0xbd, 0x22, 0x50, 0xc9, 0xbe, 0x60, 0xc7, 0xa7, 0x3c, 0x27, 0x70, 0xc4, 0x3e, 0x19, 0x5c, 0xaa, 0x3d, 0xaa, 0x0d, 0x35, 0x3e, 0x66, 0x83, 0x16, 0x3d, 0x3c, 0x78, 0x46, 0xbe, 0xe3, 0x31, 0x0e, 0xbe, 0x39, 0x84, 0x1a, 0x3e, 0xd2, 0xf8, 0x91, 0x3e, 0x8e, 0xe3, 0xcf, 0x3e, 0x9b, 0x5f, 0xab, 0x3e, 0xee, 0x26, 0xc3, 0x3e, 0xfa, 0x63, 0x9d, 0x3e, 0xff, 0x58, 0xf1, 0xbd, 0xd7, 0x05, 0xa8, 0xbe, 0x91, 0xca, 0x92, 0xbe, 0xd1, 0xba, 0x0d, 0x3d, 0x0f, 0x72, 0x63, 0xbe, 0x2f, 0xf5, 0xee, 0x3d, 0x83, 0x58, 0x8b, 0x3e, 0x16, 0x3c, 0x87, 0xbd, 0xa5, 0x2c, 0x00, 0xbe, 0xa0, 0xce, 0x67, 0xbc, 0x25, 0xfc, 0xef, 0xbd, 0x80, 0x10, 0xa3, 0x3c, 0x7d, 0x27, 0x8b, 0xbe, 0x91, 0x60, 0xfb, 0xbd, 0xa4, 0xdc, 0xab, 0x3d, 0xb8, 0x07, 0x49, 0x3e, 0xc6, 0x80, 0x83, 0xbd, 0xbd, 0xed, 0xd2, 0xbe, 0xfa, 0x6c, 0xdb, 0x3d, 0xb9, 0xbe, 0xd0, 0xbe, 0x7b, 0xf9, 0x95, 0xbd, 0xc2, 0x12, 0x2a, 0xbe, 0x82, 0x5f, 0x93, 0x3e, 0x55, 0x11, 0x58, 0x3e, 0xb1, 0x6f, 0x84, 0x3d, 0x3c, 0xad, 0x22, 0x3e, 0x05, 0x97, 0x3a, 0xbe, 0x0c, 0x5e, 0xdc, 0xb9, 0x0f, 0xe3, 0x9e, 0xbe, 0xb7, 0x81, 0x68, 0x3e, 0x3c, 0x66, 0xd6, 0xbe, 0x74, 0x89, 0x8f, 0x3e, 0x8b, 0x95, 0x80, 0xbd, 0x26, 0xc8, 0x87, 0x3d, 0x52, 0xec, 0xac, 0xbe, 0x42, 0x9b, 0x54, 0xbe, 0x4c, 0x69, 0x91, 0xbe, 0x11, 0x90, 0xac, 0x3e, 0x11, 0x0e, 0x1a, 0xbe, 0x9b, 0x68, 0x0b, 0x3e, 0x1a, 0xf3, 0x10, 0xbe, 0x75, 0xa0, 0x32, 0xbe, 0x33, 0xf7, 0xa4, 0x3e, 0xda, 0xe0, 0xaa, 0x3d, 0x05, 0xc6, 0xde, 0x3e, 0xda, 0x5b, 0xe0, 0xbe, 0x5b, 0xe5, 0x56, 0x3e, 0x50, 0xc1, 0x16, 0x3e, 0x3e, 0xcd, 0x11, 0x3e, 0x08, 0xd6, 0x47, 0xbe, 0x5a, 0x45, 0xa0, 0xbe, 0x7a, 0xc8, 0xa9, 0x3e, 0xb7, 0x3c, 0xed, 0x3e, 0xef, 0x14, 0x03, 0xbe, 0xbf, 0xfb, 0x12, 0xbe, 0x50, 0x29, 0x8a, 0x3d, 0xe9, 0x89, 0xa3, 0xbe, 0x04, 0x41, 0x8c, 0x3e, 0x10, 0x27, 0x95, 0x3e, 0xd9, 0xc6, 0xc2, 0xbe, 0xbf, 0x65, 0x84, 0x3e, 0x30, 0x80, 0x0f, 0x3e, 0x20, 0xed, 0x14, 0x3e, 0x82, 0x58, 0x29, 0x3d, 0x75, 0x0e, 0xc2, 0xbe, 0xca, 0xf8, 0x81, 0xbe, 0x0f, 0x7b, 0xf1, 0xbd, 0x16, 0x16, 0x72, 0x3e, 0xc5, 0xf3, 0x5d, 0x3e, 0xeb, 0x25, 0x51, 0x3e, 0x12, 0x9e, 0xca, 0xbe, 0x43, 0xb9, 0x98, 0xbe, 0xf5, 0xf6, 0x4a, 0x3e, 0xfb, 0x80, 0x9a, 0x3e, 0x8f, 0x23, 0x04, 0x3f, 0x6a, 0xed, 0x44, 0xbe, 0x2d, 0x70, 0x50, 0xbe, 0xa5, 0x8a, 0x31, 0x3e, 0xa6, 0x9b, 0x0e, 0xbe, 0x54, 0x19, 0xa5, 0x3e, 0x45, 0x89, 0x14, 0x3e, 0xd4, 0x32, 0x24, 0x3e, 0xe1, 0x0e, 0xbc, 0x3e, 0x22, 0x0f, 0xc2, 0x3d, 0x88, 0x35, 0xf7, 0x3c, 0x14, 0x07, 0x13, 0xbe, 0x0a, 0x83, 0x8a, 0xbd, 0x13, 0x57, 0x61, 0x3e, 0x3a, 0x51, 0x8e, 0x3d, 0x0f, 0x92, 0x6e, 0x3e, 0xa8, 0x22, 0xca, 0x3e, 0xc4, 0xda, 0x80, 0x3e, 0x9d, 0xce, 0xa0, 0xbe, 0x1b, 0x87, 0xcd, 0xbe, 0xd9, 0xea, 0x33, 0x3e, 0x8d, 0xeb, 0x84, 0x3d, 0x3a, 0xab, 0x1b, 0xbe, 0x9e, 0x68, 0xdd, 0xbd, 0x7d, 0x2b, 0xcd, 0xbe, 0x02, 0x19, 0x4d, 0x3e, 0xc6, 0xfe, 0xff, 0xff, 0x04, 0x00, 0x00, 0x00, 0x04, 0x00, 0x00, 0x00, 0x01, 0x00, 0x00, 0x00, 0xd6, 0xfe, 0xff, 0xff, 0x04, 0x00, 0x00, 0x00, 0x0c, 0x00, 0x00, 0x00, 0x63, 0xad, 0xd0, 0xbd, 0x6d, 0x99, 0xc6, 0xbd, 0x91, 0x19, 0x19, 0x3e, 0xee, 0xfe, 0xff, 0xff, 0x04, 0x00, 0x00, 0x00, 0x80, 0x00, 0x00, 0x00, 0xf7, 0xd2, 0xb2, 0xbd, 0xb4, 0x12, 0x28, 0x3e, 0x04, 0x9d, 0x86, 0xbd, 0x21, 0xd0, 0x2b, 0x3e, 0xb1, 0x75, 0x78, 0x3d, 0xd0, 0x13, 0x1b, 0x3e, 0x54, 0x1c, 0xcb, 0xbd, 0x93, 0xc7, 0x19, 0xbe, 0x73, 0xd7, 0x1e, 0xbe, 0x8d, 0x2e, 0x36, 0x3e, 0xca, 0x5f, 0xae, 0xbd, 0x74, 0x30, 0x99, 0x3d, 0xe3, 0xdc, 0xb2, 0xbd, 0xd3, 0xed, 0x82, 0x3d, 0x33, 0x4f, 0x6c, 0x3d, 0x3b, 0x1b, 0x0a, 0xbe, 0x18, 0x99, 0x02, 0xbe, 0x9f, 0x89, 0xbc, 0x3d, 0x5f, 0x95, 0x3d, 0x3c, 0x74, 0xba, 0xf5, 0xbd, 0xad, 0xbf, 0x1b, 0x3e, 0x0e, 0x05, 0x0d, 0xbe, 0xb6, 0xab, 0xb1, 0x3d, 0x55, 0x98, 0xff, 0xbd, 0xcf, 0x2e, 0x1b, 0xbd, 0xce, 0xf0, 0xb7, 0x3d, 0xcd, 0x96, 0xaf, 0x3d, 0xac, 0xfa, 0xa5, 0x3d, 0x31, 0xbf, 0x41, 0xbd, 0xf8, 0x1c, 0x12, 0x3e, 0xf6, 0x46, 0x5d, 0x3e, 0x41, 0xfa, 0xab, 0xbc, 0xac, 0xfa, 0xff, 0xff, 0xb0, 0xfa, 0xff, 0xff, 0x0f, 0x00, 0x00, 0x00, 0x4d, 0x4c, 0x49, 0x52, 0x20, 0x43, 0x6f, 0x6e, 0x76, 0x65, 0x72, 0x74, 0x65, 0x64, 0x2e, 0x00, 0x01, 0x00, 0x00, 0x00, 0x14, 0x00, 0x00, 0x00, 0x00, 0x00, 0x0e, 0x00, 0x18, 0x00, 0x14, 0x00, 0x10, 0x00, 0x0c, 0x00, 0x08, 0x00, 0x04, 0x00, 0x0e, 0x00, 0x00, 0x00, 0x14, 0x00, 0x00, 0x00, 0x1c, 0x00, 0x00, 0x00, 0x24, 0x01, 0x00, 0x00, 0x28, 0x01, 0x00, 0x00, 0x2c, 0x01, 0x00, 0x00, 0x04, 0x00, 0x00, 0x00, 0x6d, 0x61, 0x69, 0x6e, 0x00, 0x00, 0x00, 0x00, 0x04, 0x00, 0x00, 0x00, 0xdc, 0x00, 0x00, 0x00, 0x88, 0x00, 0x00, 0x00, 0x40, 0x00, 0x00, 0x00, 0x04, 0x00, 0x00, 0x00, 0x92, 0xff, 0xff, 0xff, 0x1c, 0x00, 0x00, 0x00, 0x00, 0x00, 0x00, 0x09, 0x1c, 0x00, 0x00, 0x00, 0x20, 0x00, 0x00, 0x00, 0x02, 0x00, 0x00, 0x00, 0x00, 0x00, 0x06, 0x00, 0x08, 0x00, 0x04, 0x00, 0x06, 0x00, 0x00, 0x00, 0x00, 0x00, 0x80, 0x3f, 0x01, 0x00, 0x00, 0x00, 0x09, 0x00, 0x00, 0x00, 0x01, 0x00, 0x00, 0x00, 0x08, 0x00, 0x00, 0x00, 0xca, 0xff, 0xff, 0xff, 0x14, 0x00, 0x00, 0x00, 0x00, 0x00, 0x00, 0x08, 0x10, 0x00, 0x00, 0x00, 0x14, 0x00, 0x00, 0x00, 0x01, 0x00, 0x00, 0x00, 0x68, 0xfb, 0xff, 0xff, 0x01, 0x00, 0x00, 0x00, 0x08, 0x00, 0x00, 0x00, 0x03, 0x00, 0x00, 0x00, 0x07, 0x00, 0x00, 0x00, 0x05, 0x00, 0x00, 0x00, 0x02, 0x00, 0x00, 0x00, 0x00, 0x00, 0x0e, 0x00, 0x1a, 0x00, 0x14, 0x00, 0x10, 0x00, 0x0c, 0x00, 0x0b, 0x00, 0x04, 0x00, 0x0e, 0x00, 0x00, 0x00, 0x1c, 0x00, 0x00, 0x00, 0x00, 0x00, 0x00, 0x08, 0x1c, 0x00, 0x00, 0x00, 0x20, 0x00, 0x00, 0x00, 0x01, 0x00, 0x00, 0x00, 0x00, 0x00, 0x06, 0x00, 0x08, 0x00, 0x07, 0x00, 0x06, 0x00, 0x00, 0x00, 0x00, 0x00, 0x00, 0x01, 0x01, 0x00, 0x00, 0x00, 0x07, 0x00, 0x00, 0x00, 0x03, 0x00, 0x00, 0x00, 0x06, 0x00, 0x00, 0x00, 0x04, 0x00, 0x00, 0x00, 0x01, 0x00, 0x00, 0x00, 0x00, 0x00, 0x0e, 0x00, 0x14, 0x00, 0x00, 0x00, 0x10, 0x00, 0x0c, 0x00, 0x0b, 0x00, 0x04, 0x00, 0x0e, 0x00, 0x00, 0x00, 0x10, 0x00, 0x00, 0x00, 0x00, 0x00, 0x00, 0x1b, 0x0c, 0x00, 0x00, 0x00, 0x10, 0x00, 0x00, 0x00, 0xf8, 0xfb, 0xff, 0xff, 0x01, 0x00, 0x00, 0x00, 0x06, 0x00, 0x00, 0x00, 0x02, 0x00, 0x00, 0x00, 0x00, 0x00, 0x00, 0x00, 0x03, 0x00, 0x00, 0x00, 0x01, 0x00, 0x00, 0x00, 0x09, 0x00, 0x00, 0x00, 0x01, 0x00, 0x00, 0x00, 0x00, 0x00, 0x00, 0x00, 0x0a, 0x00, 0x00, 0x00, 0xb0, 0x03, 0x00, 0x00, 0x44, 0x03, 0x00, 0x00, 0xd4, 0x02, 0x00, 0x00, 0x70, 0x02, 0x00, 0x00, 0x10, 0x02, 0x00, 0x00, 0xc4, 0x01, 0x00, 0x00, 0x60, 0x01, 0x00, 0x00, 0xd8, 0x00, 0x00, 0x00, 0x60, 0x00, 0x00, 0x00, 0x04, 0x00, 0x00, 0x00, 0x8e, 0xfc, 0xff, 0xff, 0x00, 0x00, 0x00, 0x01, 0x14, 0x00, 0x00, 0x00, 0x1c, 0x00, 0x00, 0x00, 0x1c, 0x00, 0x00, 0x00, 0x0a, 0x00, 0x00, 0x00, 0x34, 0x00, 0x00, 0x00, 0x02, 0x00, 0x00, 0x00, 0xff, 0xff, 0xff, 0xff, 0x03, 0x00, 0x00, 0x00, 0x74, 0xfc, 0xff, 0xff, 0x19, 0x00, 0x00, 0x00, 0x53, 0x74, 0x61, 0x74, 0x65, 0x66, 0x75, 0x6c, 0x50, 0x61, 0x72, 0x74, 0x69, 0x74, 0x69, 0x6f, 0x6e, 0x65, 0x64, 0x43, 0x61, 0x6c, 0x6c, 0x3a, 0x30, 0x00, 0x00, 0x00, 0x02, 0x00, 0x00, 0x00, 0x01, 0x00, 0x00, 0x00, 0x03, 0x00, 0x00, 0x00, 0xe6, 0xfc, 0xff, 0xff, 0x00, 0x00, 0x00, 0x01, 0x14, 0x00, 0x00, 0x00, 0x1c, 0x00, 0x00, 0x00, 0x1c, 0x00, 0x00, 0x00, 0x09, 0x00, 0x00, 0x00, 0x50, 0x00, 0x00, 0x00, 0x02, 0x00, 0x00, 0x00, 0xff, 0xff, 0xff, 0xff, 0x03, 0x00, 0x00, 0x00, 0xcc, 0xfc, 0xff, 0xff, 0x34, 0x00, 0x00, 0x00, 0x73, 0x65, 0x71, 0x75, 0x65, 0x6e, 0x74, 0x69, 0x61, 0x6c, 0x2f, 0x64, 0x65, 0x6e, 0x73, 0x65, 0x5f, 0x31, 0x2f, 0x4d, 0x61, 0x74, 0x4d, 0x75, 0x6c, 0x3b, 0x73, 0x65, 0x71, 0x75, 0x65, 0x6e, 0x74, 0x69, 0x61, 0x6c, 0x2f, 0x64, 0x65, 0x6e, 0x73, 0x65, 0x5f, 0x31, 0x2f, 0x42, 0x69, 0x61, 0x73, 0x41, 0x64, 0x64, 0x00, 0x00, 0x00, 0x00, 0x02, 0x00, 0x00, 0x00, 0x01, 0x00, 0x00, 0x00, 0x03, 0x00, 0x00, 0x00, 0x5a, 0xfd, 0xff, 0xff, 0x00, 0x00, 0x00, 0x01, 0x14, 0x00, 0x00, 0x00, 0x1c, 0x00, 0x00, 0x00, 0x1c, 0x00, 0x00, 0x00, 0x08, 0x00, 0x00, 0x00, 0x60, 0x00, 0x00, 0x00, 0x02, 0x00, 0x00, 0x00, 0xff, 0xff, 0xff, 0xff, 0x20, 0x00, 0x00, 0x00, 0x40, 0xfd, 0xff, 0xff, 0x46, 0x00, 0x00, 0x00, 0x73, 0x65, 0x71, 0x75, 0x65, 0x6e, 0x74, 0x69, 0x61, 0x6c, 0x2f, 0x64, 0x65, 0x6e, 0x73, 0x65, 0x2f, 0x4d, 0x61, 0x74, 0x4d, 0x75, 0x6c, 0x3b, 0x73, 0x65, 0x71, 0x75, 0x65, 0x6e, 0x74, 0x69, 0x61, 0x6c, 0x2f, 0x64, 0x65, 0x6e, 0x73, 0x65, 0x2f, 0x52, 0x65, 0x6c, 0x75, 0x3b, 0x73, 0x65, 0x71, 0x75, 0x65, 0x6e, 0x74, 0x69, 0x61, 0x6c, 0x2f, 0x64, 0x65, 0x6e, 0x73, 0x65, 0x2f, 0x42, 0x69, 0x61, 0x73, 0x41, 0x64, 0x64, 0x00, 0x00, 0x02, 0x00, 0x00, 0x00, 0x01, 0x00, 0x00, 0x00, 0x20, 0x00, 0x00, 0x00, 0xde, 0xfd, 0xff, 0xff, 0x00, 0x00, 0x00, 0x01, 0x14, 0x00, 0x00, 0x00, 0x1c, 0x00, 0x00, 0x00, 0x1c, 0x00, 0x00, 0x00, 0x07, 0x00, 0x00, 0x00, 0x3c, 0x00, 0x00, 0x00, 0x02, 0x00, 0x00, 0x00, 0xff, 0xff, 0xff, 0xff, 0x09, 0x00, 0x00, 0x00, 0xc4, 0xfd, 0xff, 0xff, 0x23, 0x00, 0x00, 0x00, 0x73, 0x65, 0x71, 0x75, 0x65, 0x6e, 0x74, 0x69, 0x61, 0x6c, 0x2f, 0x67, 0x6c, 0x6f, 0x62, 0x61, 0x6c, 0x5f, 0x6d, 0x61, 0x78, 0x5f, 0x70, 0x6f, 0x6f, 0x6c, 0x69, 0x6e, 0x67, 0x31, 0x64, 0x2f, 0x4d, 0x61, 0x78, 0x00, 0x02, 0x00, 0x00, 0x00, 0x01, 0x00, 0x00, 0x00, 0x09, 0x00, 0x00, 0x00, 0xa6, 0xfe, 0xff, 0xff, 0x00, 0x00, 0x00, 0x01, 0x10, 0x00, 0x00, 0x00, 0x10, 0x00, 0x00, 0x00, 0x06, 0x00, 0x00, 0x00, 0x28, 0x00, 0x00, 0x00, 0x14, 0xfe, 0xff, 0xff, 0x19, 0x00, 0x00, 0x00, 0x73, 0x65, 0x71, 0x75, 0x65, 0x6e, 0x74, 0x69, 0x61, 0x6c, 0x2f, 0x64, 0x65, 0x6e, 0x73, 0x65, 0x5f, 0x31, 0x2f, 0x4d, 0x61, 0x74, 0x4d, 0x75, 0x6c, 0x00, 0x00, 0x00, 0x02, 0x00, 0x00, 0x00, 0x03, 0x00, 0x00, 0x00, 0x20, 0x00, 0x00, 0x00, 0xee, 0xfe, 0xff, 0xff, 0x00, 0x00, 0x00, 0x01, 0x10, 0x00, 0x00, 0x00, 0x10, 0x00, 0x00, 0x00, 0x05, 0x00, 0x00, 0x00, 0x24, 0x00, 0x00, 0x00, 0x5c, 0xfe, 0xff, 0xff, 0x17, 0x00, 0x00, 0x00, 0x73, 0x65, 0x71, 0x75, 0x65, 0x6e, 0x74, 0x69, 0x61, 0x6c, 0x2f, 0x64, 0x65, 0x6e, 0x73, 0x65, 0x2f, 0x4d, 0x61, 0x74, 0x4d, 0x75, 0x6c, 0x00, 0x02, 0x00, 0x00, 0x00, 0x20, 0x00, 0x00, 0x00, 0x09, 0x00, 0x00, 0x00, 0x00, 0x00, 0x16, 0x00, 0x1c, 0x00, 0x18, 0x00, 0x17, 0x00, 0x10, 0x00, 0x0c, 0x00, 0x08, 0x00, 0x00, 0x00, 0x00, 0x00, 0x00, 0x00, 0x07, 0x00, 0x16, 0x00, 0x00, 0x00, 0x00, 0x00, 0x00, 0x01, 0x14, 0x00, 0x00, 0x00, 0x14, 0x00, 0x00, 0x00, 0x04, 0x00, 0x00, 0x00, 0x00, 0x00, 0x00, 0x02, 0x44, 0x00, 0x00, 0x00, 0xbc, 0xfe, 0xff, 0xff, 0x35, 0x00, 0x00, 0x00, 0x73, 0x65, 0x71, 0x75, 0x65, 0x6e, 0x74, 0x69, 0x61, 0x6c, 0x2f, 0x67, 0x6c, 0x6f, 0x62, 0x61, 0x6c, 0x5f, 0x6d, 0x61, 0x78, 0x5f, 0x70, 0x6f, 0x6f, 0x6c, 0x69, 0x6e, 0x67, 0x31, 0x64, 0x2f, 0x4d, 0x61, 0x78, 0x2f, 0x72, 0x65, 0x64, 0x75, 0x63, 0x74, 0x69, 0x6f, 0x6e, 0x5f, 0x69, 0x6e, 0x64, 0x69, 0x63, 0x65, 0x73, 0x00, 0x00, 0x00, 0x00, 0x00, 0x00, 0x00, 0xaa, 0xff, 0xff, 0xff, 0x00, 0x00, 0x00, 0x01, 0x10, 0x00, 0x00, 0x00, 0x10, 0x00, 0x00, 0x00, 0x03, 0x00, 0x00, 0x00, 0x38, 0x00, 0x00, 0x00, 0x18, 0xff, 0xff, 0xff, 0x29, 0x00, 0x00, 0x00, 0x73, 0x65, 0x71, 0x75, 0x65, 0x6e, 0x74, 0x69, 0x61, 0x6c, 0x2f, 0x64, 0x65, 0x6e, 0x73, 0x65, 0x5f, 0x31, 0x2f, 0x42, 0x69, 0x61, 0x73, 0x41, 0x64, 0x64, 0x2f, 0x52, 0x65, 0x61, 0x64, 0x56, 0x61, 0x72, 0x69, 0x61, 0x62, 0x6c, 0x65, 0x4f, 0x70, 0x00, 0x00, 0x00, 0x01, 0x00, 0x00, 0x00, 0x03, 0x00, 0x00, 0x00, 0x00, 0x00, 0x16, 0x00, 0x18, 0x00, 0x14, 0x00, 0x00, 0x00, 0x10, 0x00, 0x0c, 0x00, 0x08, 0x00, 0x00, 0x00, 0x00, 0x00, 0x00, 0x00, 0x07, 0x00, 0x16, 0x00, 0x00, 0x00, 0x00, 0x00, 0x00, 0x01, 0x10, 0x00, 0x00, 0x00, 0x10, 0x00, 0x00, 0x00, 0x02, 0x00, 0x00, 0x00, 0x34, 0x00, 0x00, 0x00, 0x84, 0xff, 0xff, 0xff, 0x27, 0x00, 0x00, 0x00, 0x73, 0x65, 0x71, 0x75, 0x65, 0x6e, 0x74, 0x69, 0x61, 0x6c, 0x2f, 0x64, 0x65, 0x6e, 0x73, 0x65, 0x2f, 0x42, 0x69, 0x61, 0x73, 0x41, 0x64, 0x64, 0x2f, 0x52, 0x65, 0x61, 0x64, 0x56, 0x61, 0x72, 0x69, 0x61, 0x62, 0x6c, 0x65, 0x4f, 0x70, 0x00, 0x01, 0x00, 0x00, 0x00, 0x20, 0x00, 0x00, 0x00, 0x00, 0x00, 0x16, 0x00, 0x1c, 0x00, 0x18, 0x00, 0x00, 0x00, 0x14, 0x00, 0x10, 0x00, 0x0c, 0x00, 0x00, 0x00, 0x00, 0x00, 0x08, 0x00, 0x07, 0x00, 0x16, 0x00, 0x00, 0x00, 0x00, 0x00, 0x00, 0x01, 0x14, 0x00, 0x00, 0x00, 0x24, 0x00, 0x00, 0x00, 0x24, 0x00, 0x00, 0x00, 0x01, 0x00, 0x00, 0x00, 0x38, 0x00, 0x00, 0x00, 0x03, 0x00, 0x00, 0x00, 0xff, 0xff, 0xff, 0xff, 0x1e, 0x00, 0x00, 0x00, 0x09, 0x00, 0x00, 0x00, 0x04, 0x00, 0x04, 0x00, 0x04, 0x00, 0x00, 0x00, 0x17, 0x00, 0x00, 0x00, 0x73, 0x65, 0x72, 0x76, 0x69, 0x6e, 0x67, 0x5f, 0x64, 0x65, 0x66, 0x61, 0x75, 0x6c, 0x74, 0x5f, 0x69, 0x6e, 0x70, 0x75, 0x74, 0x3a, 0x30, 0x00, 0x03, 0x00, 0x00, 0x00, 0x01, 0x00, 0x00, 0x00, 0x1e, 0x00, 0x00, 0x00, 0x09, 0x00, 0x00, 0x00, 0x03, 0x00, 0x00, 0x00, 0x30, 0x00, 0x00, 0x00, 0x14, 0x00, 0x00, 0x00, 0x04, 0x00, 0x00, 0x00, 0xe8, 0xff, 0xff, 0xff, 0x19, 0x00, 0x00, 0x00, 0x00, 0x00, 0x00, 0x19, 0xf4, 0xff, 0xff, 0xff, 0x09, 0x00, 0x00, 0x00, 0x00, 0x00, 0x00, 0x09, 0x0c, 0x00, 0x0c, 0x00, 0x0b, 0x00, 0x00, 0x00, 0x00, 0x00, 0x04, 0x00, 0x0c, 0x00, 0x00, 0x00, 0x52, 0x00, 0x00, 0x00, 0x00, 0x00, 0x00, 0x52
};

#endif  // MODEL_H
